{
  "version": "1.0",
  "truncation": null,
  "padding": null,
  "added_tokens": [
    {
      "id": 0,
      "content": "[PAD]",
      "single_word": false,
      "lstrip": false,
      "rstrip": false,
      "normalized": false,
      "special": true
    },
    {
      "id": 1,
      "content": "[EOS]",
      "single_word": false,
      "lstrip": false,
      "rstrip": false,
      "normalized": false,
      "special": true
    },
    {
      "id": 2,
      "content": "[UNK]",
      "single_word": false,
      "lstrip": false,
      "rstrip": false,
      "normalized": false,
      "special": true
    }
  ],
  "normalizer": {
    "type": "NFC"
  },
  "pre_tokenizer": {
    "type": "ByteLevel",
    "add_prefix_space": false,
    "trim_offsets": true,
    "use_regex": true
  },
  "post_processor": null,
  "decoder": {
    "type": "ByteLevel",
    "add_prefix_space": true,
    "trim_offsets": true,
    "use_regex": true
  },
  "model": {
    "type": "BPE",
    "dropout": null,
    "unk_token": "[UNK]",
    "continuing_subword_prefix": null,
    "end_of_word_suffix": null,
    "fuse_unk": false,
    "byte_fallback": false,
    "ignore_merges": false,
    "vocab": {
      "[PAD]": 0,
      "[EOS]": 1,
      "[UNK]": 2,
      "!": 3,
      "\"": 4,
      "$": 5,
      "&": 6,
      "'": 7,
      "*": 8,
      ",": 9,
      "-": 10,
      ".": 11,
      "0": 12,
      "1": 13,
      "2": 14,
      "3": 15,
      "4": 16,
      "5": 17,
      "6": 18,
      "7": 19,
      "8": 20,
      "9": 21,
      ":": 22,
      ";": 23,
      "?": 24,
      "A": 25,
      "B": 26,
      "C": 27,
      "D": 28,
      "E": 29,
      "F": 30,
      "G": 31,
      "H": 32,
      "I": 33,
      "J": 34,
      "K": 35,
      "L": 36,
      "M": 37,
      "N": 38,
      "O": 39,
      "P": 40,
      "Q": 41,
      "R": 42,
      "S": 43,
      "T": 44,
      "U": 45,
      "V": 46,
      "W": 47,
      "X": 48,
      "Y": 49,
      "Z": 50,
      "a": 51,
      "b": 52,
      "c": 53,
      "d": 54,
      "e": 55,
      "f": 56,
      "g": 57,
      "h": 58,
      "i": 59,
      "j": 60,
      "k": 61,
      "l": 62,
      "m": 63,
      "n": 64,
      "o": 65,
      "p": 66,
      "q": 67,
      "r": 68,
      "s": 69,
      "t": 70,
      "u": 71,
      "v": 72,
      "w": 73,
      "x": 74,
      "y": 75,
      "z": 76,
      "¡": 77,
      "¢": 78,
      "¦": 79,
      "©": 80,
      "«": 81,
      "¬": 82,
      "±": 83,
      "³": 84,
      "»": 85,
      "Â": 86,
      "Ã": 87,
      "Å": 88,
      "Ë": 89,
      "â": 90,
      "Ċ": 91,
      "Ġ": 92,
      "Ģ": 93,
      "Ĥ": 94,
      "ĥ": 95,
      "Ħ": 96,
      "ĵ": 97,
      "ľ": 98,
      "Ŀ": 99,
      "he": 100,
      "Ġt": 101,
      "Ġa": 102,
      "Ġs": 103,
      "Ġw": 104,
      "nd": 105,
      "Ġthe": 106,
      "ed": 107,
      "Ġand": 108,
      "in": 109,
      "Ġto": 110,
      "Ġb": 111,
      "Ġh": 112,
      "Ġwa": 113,
      "re": 114,
      "ou": 115,
      "Ġf": 116,
      "it": 117,
      "ĠT": 118,
      "Ġl": 119,
      "Ġc": 120,
      "Ġhe": 121,
      "er": 122,
      "Ġd": 123,
      "Ġwas": 124,
      "Ġm": 125,
      "Ġp": 126,
      "om": 127,
      "Ġo": 128,
      "ing": 129,
      "ay": 130,
      "ar": 131,
      "is": 132,
      "ĠThe": 133,
      "Ġg": 134,
      "id": 135,
      "il": 136,
      "at": 137,
      "ĠS": 138,
      "Ġsa": 139,
      "en": 140,
      "Ġn": 141,
      "Ġha": 142,
      "an": 143,
      "im": 144,
      "or": 145,
      "on": 146,
      "Ġth": 147,
      "Ġit": 148,
      "ll": 149,
      "ĠH": 150,
      "le": 151,
      "Ġ\"": 152,
      "et": 153,
      "Ġher": 154,
      "ir": 155,
      "ĠShe": 156,
      "ot": 157,
      "ĠHe": 158,
      "Ġin": 159,
      "ver": 160,
      "es": 161,
      "ow": 162,
      "ut": 163,
      "ck": 164,
      "Ġe": 165,
      "Ġsaid": 166,
      "Ġu": 167,
      "ld": 168,
      "ĠThey": 169,
      "Ġy": 170,
      "ĠL": 171,
      "oo": 172,
      "ig": 173,
      "Ġbe": 174,
      "am": 175,
      "Ġr": 176,
      "Ġst": 177,
      "Ġshe": 178,
      "ce": 179,
      "pp": 180,
      "ily": 181,
      "On": 182,
      "ith": 183,
      "ĠI": 184,
      "ke": 185,
      "Ġwith": 186,
      "ve": 187,
      "ked": 188,
      "Ġso": 189,
      "Ġof": 190,
      "ri": 191,
      "Ġon": 192,
      "Ġhis": 193,
      "Ġyou": 194,
      "Ġpl": 195,
      "Ġday": 196,
      "very": 197,
      "nt": 198,
      "ad": 199,
      "ĠLily": 200,
      "Ġthat": 201,
      "ĠB": 202,
      "Ġup": 203,
      "st": 204,
      "Ġhad": 205,
      "Ġplay": 206,
      "el": 207,
      "Ġthey": 208,
      "Ġmom": 209,
      "my": 210,
      "'s": 211,
      "Ġwe": 212,
      "Ġfor": 213,
      "ould": 214,
      "un": 215,
      "ent": 216,
      "itt": 217,
      "ĠM": 218,
      "her": 219,
      "out": 220,
      "Ġhapp": 221,
      "Ġli": 222,
      "ch": 223,
      "Ġsh": 224,
      "ly": 225,
      "Ġwant": 226,
      "ittle": 227,
      "ound": 228,
      "ime": 229,
      "Ġlittle": 230,
      "all": 231,
      "ĠĠ": 232,
      "Ġtime": 233,
      "end": 234,
      "Ġvery": 235,
      "Ġthere": 236,
      "Ġdo": 237,
      "Ġwh": 238,
      "se": 239,
      "ome": 240,
      "Ġsm": 241,
      "ht": 242,
      "Ġre": 243,
      "al": 244,
      "Ġk": 245,
      "Ġne": 246,
      "Ġbig": 247,
      "Ġas": 248,
      "ack": 249,
      "ĠA": 250,
      "Ġhappy": 251,
      "riend": 252,
      "Ġfriend": 253,
      "Ġnot": 254,
      "Ġbut": 255,
      "Ġsaw": 256,
      "Ġan": 257,
      "One": 258,
      "ra": 259,
      "ĠJ": 260,
      "ĠTim": 261,
      ".\"": 262,
      "ĠIt": 263,
      "ry": 264,
      "'t": 265,
      "ide": 266,
      "ved": 267,
      "Once": 268,
      "!\"": 269,
      "Ġis": 270,
      "Ġloo": 271,
      "ug": 272,
      "ake": 273,
      "ĠOne": 274,
      "ter": 275,
      "ec": 276,
      "Ġwere": 277,
      "ore": 278,
      "Ġlo": 279,
      "Ġbo": 280,
      "irl": 281,
      "Ġupon": 282,
      "Ġhim": 283,
      "Ġgirl": 284,
      "Ġtoo": 285,
      "ard": 286,
      "Ġwanted": 287,
      "Ġgo": 288,
      "Ġj": 289,
      "Ġout": 290,
      "Ġse": 291,
      "Ġsmil": 292,
      "fu": 293,
      "ill": 294,
      "hen": 295,
      "Ġsp": 296,
      "way": 297,
      "Ġcould": 298,
      "ind": 299,
      "ur": 300,
      "Ġat": 301,
      "Ġex": 302,
      "ain": 303,
      "Ġthem": 304,
      "round": 305,
      "Ġwent": 306,
      "hed": 307,
      "art": 308,
      "ic": 309,
      "Ġdid": 310,
      "Ġnam": 311,
      "Ġtheir": 312,
      "rom": 313,
      "hing": 314,
      "lp": 315,
      "Ġare": 316,
      "ful": 317,
      "Ġcan": 318,
      "Ġhelp": 319,
      "Ġfriends": 320,
      "um": 321,
      "?\"": 322,
      "Ġall": 323,
      "Ġhave": 324,
      "ĠW": 325,
      "ight": 326,
      "ĠTom": 327,
      "ĠBen": 328,
      "Ġkn": 329,
      "one": 330,
      "Ã¢": 331,
      "âĤ": 332,
      "âĤ¬": 333,
      "Ġsmiled": 334,
      "ood": 335,
      "Ġback": 336,
      "ark": 337,
      "Ġnamed": 338,
      "ĠTimmy": 339,
      "are": 340,
      "Ġcl": 341,
      "ĠBut": 342,
      "Ġasked": 343,
      "Ġfun": 344,
      "oug": 345,
      "Ġno": 346,
      "Ġloved": 347,
      "Ġle": 348,
      "elt": 349,
      "op": 350,
      "Ġaround": 351,
      "side": 352,
      "ick": 353,
      "Ġlooked": 354,
      "Ġsc": 355,
      "get": 356,
      "Ġfelt": 357,
      "Ġal": 358,
      "ame": 359,
      "omet": 360,
      "Ġboy": 361,
      "Ġfe": 362,
      "You": 363,
      "ure": 364,
      "Ġbir": 365,
      "Ġman": 366,
      "Ġstart": 367,
      "Ġtoy": 368,
      "Ġro": 369,
      "Ġsee": 370,
      "Ġme": 371,
      "dd": 372,
      "ice": 373,
      "Ġlike": 374,
      "Ġbr": 375,
      "Ġwould": 376,
      "as": 377,
      "Ġsomet": 378,
      "gether": 379,
      "ong": 380,
      "Ġbird": 381,
      "Ġsome": 382,
      "ree": 383,
      "Ġwor": 384,
      "king": 385,
      "Ġag": 386,
      "Ġtogether": 387,
      "Ġstarted": 388,
      "ag": 389,
      "Ġsay": 390,
      "ings": 391,
      "Ġwhat": 392,
      "ited": 393,
      "ade": 394,
      "Ġfa": 395,
      "own": 396,
      ",\"": 397,
      "Ġsomething": 398,
      "ared": 399,
      "ie": 400,
      "Ġaway": 401,
      "Ġexc": 402,
      "Ġran": 403,
      "oud": 404,
      "Ġmake": 405,
      "if": 406,
      "Ġpark": 407,
      "ble": 408,
      "hat": 409,
      "Ġmade": 410,
      "pped": 411,
      "ĠE": 412,
      "Ġcar": 413,
      "ĠF": 414,
      "Ġfrom": 415,
      "Ġco": 416,
      "Ġot": 417,
      "Ġwhen": 418,
      "Ġsad": 419,
      "Ġnew": 420,
      "Ġla": 421,
      "pl": 422,
      "Ġthen": 423,
      "ell": 424,
      "Ġpr": 425,
      "Ġagain": 426,
      "us": 427,
      "Ġother": 428,
      "Ġhome": 429,
      "Ġput": 430,
      "Ġfound": 431,
      "ally": 432,
      "Ġwal": 433,
      "ĠMom": 434,
      "ought": 435,
      "Ġfl": 436,
      "est": 437,
      "Ġwho": 438,
      "Ġexcited": 439,
      "ep": 440,
      "ust": 441,
      "ĠYou": 442,
      "Ġplaying": 443,
      "Ġhug": 444,
      "qu": 445,
      "Ġget": 446,
      "Ġdec": 447,
      "ss": 448,
      "ried": 449,
      "Ġch": 450,
      "ĠSu": 451,
      "ĠD": 452,
      "ous": 453,
      "Ġgood": 454,
      "Ġsw": 455,
      "ach": 456,
      "uch": 457,
      "ook": 458,
      "ro": 459,
      "ny": 460,
      "Ġthings": 461,
      "uck": 462,
      "Ġgot": 463,
      "Ġv": 464,
      "ave": 465,
      "Ġcame": 466,
      "Ġevery": 467,
      "ided": 468,
      "Ġdecided": 469,
      "Ġone": 470,
      "Ġbl": 471,
      "Ġbec": 472,
      "Ġdog": 473,
      "Ġscared": 474,
      "Ġdown": 475,
      "Ġliked": 476,
      "Ġthan": 477,
      "ouse": 478,
      "ĠSo": 479,
      "Ġcare": 480,
      "Ġtree": 481,
      "Ġfeel": 482,
      "bb": 483,
      "Ġsays": 484,
      "Ġfind": 485,
      "ways": 486,
      "Ġyour": 487,
      "ax": 488,
      "Ġdad": 489,
      "Ġab": 490,
      "Ġpo": 491,
      "ara": 492,
      "ist": 493,
      "Ġalways": 494,
      "ĠSam": 495,
      "ant": 496,
      "Ġta": 497,
      "Ġke": 498,
      "ĠWhen": 499,
      "ĠJo": 500,
      "our": 501,
      "Ġthought": 502,
      "Ġlot": 503,
      "nder": 504,
      "Ġdidn": 505,
      "Ġkne": 506,
      "Ġabout": 507,
      "Ġgra": 508,
      "ite": 509,
      "Ġold": 510,
      "Ġtook": 511,
      "Ġint": 512,
      "Ġmy": 513,
      "dden": 514,
      "Ġlook": 515,
      "eci": 516,
      "Ġlaug": 517,
      "fe": 518,
      "ned": 519,
      "Ġho": 520,
      "ĠMax": 521,
      "Ġoutside": 522,
      "ched": 523,
      "Ġmommy": 524,
      "ise": 525,
      "ess": 526,
      "ers": 527,
      "ĠHer": 528,
      "ddenly": 529,
      "ened": 530,
      "na": 531,
      "ged": 532,
      "Ġtake": 533,
      "ecial": 534,
      "Ġspecial": 535,
      "ĠJack": 536,
      "Ġtoys": 537,
      "Ġknew": 538,
      "ap": 539,
      "Ġpe": 540,
      "Ġlear": 541,
      "Ġball": 542,
      "Ġknow": 543,
      "reat": 544,
      "ĠSara": 545,
      "ret": 546,
      "Ġmore": 547,
      "fter": 548,
      "Ġany": 549,
      "ob": 550,
      "Ġwill": 551,
      "ive": 552,
      "Ġsun": 553,
      "Ġtr": 554,
      "ma": 555,
      "Ġcat": 556,
      "Ġtw": 557,
      "Ġhow": 558,
      "ven": 559,
      "ĠAn": 560,
      "ĠÃ¢": 561,
      "Ġshow": 562,
      "Ġinto": 563,
      "ĠEvery": 564,
      "Ġmuch": 565,
      "ĠSuddenly": 566,
      "Ġcouldn": 567,
      "Ġsk": 568,
      "Ġen": 569,
      "Ġexpl": 570,
      "Ġmo": 571,
      "au": 572,
      "ish": 573,
      "Ġtold": 574,
      "ia": 575,
      "Ġclo": 576,
      "and": 577,
      "Ġqu": 578,
      "ge": 579,
      "ank": 580,
      "Åĵ": 581,
      "Ġthis": 582,
      "Ġif": 583,
      "Ġinside": 584,
      "Ġhand": 585,
      "Ġproud": 586,
      "Ġroom": 587,
      "Ġnever": 588,
      "Ġover": 589,
      "Ġheard": 590,
      "Ġhouse": 591,
      "Ġop": 592,
      "ĠHis": 593,
      "Ġsl": 594,
      "Ġsor": 595,
      "uc": 596,
      "other": 597,
      "here": 598,
      "Ġgave": 599,
      "ion": 600,
      "Ġpick": 601,
      "ty": 602,
      "Ġor": 603,
      "Ġstr": 604,
      "Ġplayed": 605,
      "Ġtried": 606,
      "dy": 607,
      "ĠFrom": 608,
      "ĠAnna": 609,
      "ace": 610,
      "Ġrun": 611,
      "ink": 612,
      "Ġwater": 613,
      "oll": 614,
      "ause": 615,
      "Ġsmall": 616,
      "Ġjust": 617,
      "ate": 618,
      "ump": 619,
      "Ġwat": 620,
      "Ġbu": 621,
      "by": 622,
      "oth": 623,
      "Ġeat": 624,
      "ough": 625,
      "Ġhugged": 626,
      "Ġcom": 627,
      "Ġsorry": 628,
      "ving": 629,
      "etter": 630,
      "'m": 631,
      "Ġcall": 632,
      "Ġbecause": 633,
      "ile": 634,
      "ĠThen": 635,
      "Ġneed": 636,
      "sed": 637,
      "iz": 638,
      "sel": 639,
      "hn": 640,
      "Ġlong": 641,
      "ild": 642,
      "Ġoff": 643,
      "Ġbea": 644,
      "Ġpret": 645,
      "ort": 646,
      "ue": 647,
      "Ġtry": 648,
      "Ġbox": 649,
      "ning": 650,
      "ars": 651,
      "Ġnice": 652,
      "Ġpu": 653,
      "Ġeach": 654,
      "Ġflow": 655,
      "Ġunt": 656,
      "ĠC": 657,
      "ĠAnd": 658,
      "ine": 659,
      "Yes": 660,
      "vent": 661,
      "Ġlaughed": 662,
      "Ġad": 663,
      "Ġthanked": 664,
      "Ġuntil": 665,
      "Ġmany": 666,
      "ak": 667,
      "ady": 668,
      "Ġbeaut": 669,
      "ft": 670,
      "imal": 671,
      "Ġanimal": 672,
      "Ġdon": 673,
      "em": 674,
      "Ġbest": 675,
      "Ġbear": 676,
      "Ġim": 677,
      "Ġend": 678,
      "oy": 679,
      "ĠMia": 680,
      "Ġeven": 681,
      "Ġkind": 682,
      "pt": 683,
      "Ġbetter": 684,
      "urt": 685,
      "Ġgr": 686,
      "Ġby": 687,
      "gry": 688,
      "Ġra": 689,
      "Ġlearned": 690,
      "urp": 691,
      "ĠWe": 692,
      "Ġgard": 693,
      "Ġgarden": 694,
      "ĠJohn": 695,
      "self": 696,
      "Ġfi": 697,
      "Ġdre": 698,
      "Ġbeauti": 699,
      "âĤ¬â": 700,
      "Ġlots": 701,
      "Ġbeautiful": 702,
      "ucy": 703,
      "ĠAs": 704,
      "ber": 705,
      "Ġlived": 706,
      "Th": 707,
      "ĠLucy": 708,
      "iny": 709,
      "lew": 710,
      "Ġsky": 711,
      "Ġbra": 712,
      "Ġcle": 713,
      "ĠBob": 714,
      "Ġsn": 715,
      "Ġfast": 716,
      "Ġche": 717,
      "Ġway": 718,
      "Ġcareful": 719,
      "Ġtwo": 720,
      "It": 721,
      "Ġcalled": 722,
      "ane": 723,
      "ct": 724,
      "Ġcu": 725,
      "Ħ¢": 726,
      "âĤ¬âĦ¢": 727,
      "Ġcome": 728,
      "Ġboth": 729,
      "Ġjump": 730,
      "Ġwo": 731,
      "ase": 732,
      "Ġstill": 733,
      "ect": 734,
      "Ġgl": 735,
      "Ġte": 736,
      "Ġlove": 737,
      "ĠP": 738,
      "Ġar": 739,
      "Ġhard": 740,
      "ves": 741,
      "Let": 742,
      "Ġfam": 743,
      "Ġloud": 744,
      "Ġrem": 745,
      "Ġlist": 746,
      "ĠAfter": 747,
      "Ġstay": 748,
      "igh": 749,
      "ied": 750,
      "Ġdan": 751,
      "What": 752,
      "Ġlet": 753,
      "Ġfin": 754,
      "Ġcol": 755,
      "urpr": 756,
      "Ġunder": 757,
      "Ġwalked": 758,
      "Ġsurpr": 759,
      "Ġbrave": 760,
      "Ġflew": 761,
      "Ġsafe": 762,
      "Ġits": 763,
      "Ġanimals": 764,
      "Ġsoon": 765,
      "Ġimp": 766,
      "ool": 767,
      "Ġfly": 768,
      "Ġow": 769,
      "Ġexplore": 770,
      "hes": 771,
      "Ġhurt": 772,
      "ast": 773,
      "Ġtow": 774,
      "Ġred": 775,
      "ople": 776,
      "Ġcon": 777,
      "Ġdoll": 778,
      "fore": 779,
      "Ġgoing": 780,
      "dded": 781,
      "ĠG": 782,
      "ised": 783,
      "Ġbad": 784,
      "ummy": 785,
      "Ġkept": 786,
      "ip": 787,
      "Ġsto": 788,
      "ished": 789,
      "Ġshould": 790,
      "Ġfamily": 791,
      "led": 792,
      "Ġnow": 793,
      "Ġground": 794,
      "Ġpic": 795,
      "ies": 796,
      "Ġstor": 797,
      "kay": 798,
      "Ġpeople": 799,
      "age": 800,
      "Ġadvent": 801,
      "Ġfore": 802,
      "ock": 803,
      "Ġfeeling": 804,
      "ĠR": 805,
      "iced": 806,
      "Ġbefore": 807,
      "Ġcry": 808,
      "Ġrepl": 809,
      "No": 810,
      "Ġwalking": 811,
      "Ġkeep": 812,
      "Ġbook": 813,
      "xt": 814,
      "Ġdoor": 815,
      "illy": 816,
      "That": 817,
      "Ġwhile": 818,
      "eet": 819,
      "be": 820,
      "Ġwind": 821,
      "thing": 822,
      "Ġshare": 823,
      "Ġdra": 824,
      "Ġshiny": 825,
      "Ġnodded": 826,
      "Ġtur": 827,
      "Ġangry": 828,
      "Ġopened": 829,
      "hy": 830,
      "Ġide": 831,
      "ary": 832,
      "ting": 833,
      "Ġpicked": 834,
      "Ġfr": 835,
      "Ġey": 836,
      "Ġreplied": 837,
      "Ġpretty": 838,
      "Ġclean": 839,
      "Ġwar": 840,
      "ĠMommy": 841,
      "Ġnoticed": 842,
      "Ġstopped": 843,
      "ger": 844,
      "Ġnoise": 845,
      "Ġidea": 846,
      "Ġvo": 847,
      "joy": 848,
      "Ġfar": 849,
      "Ġthr": 850,
      "ĠDad": 851,
      "bbit": 852,
      "Ġadventure": 853,
      "ner": 854,
      "ĠJane": 855,
      "Ġrock": 856,
      "ted": 857,
      "Ġreal": 858,
      "ture": 859,
      "Ġgreat": 860,
      "Ġquick": 861,
      "les": 862,
      "gan": 863,
      "Ġwr": 864,
      "Ġlooking": 865,
      "Ġun": 866,
      "Ġclos": 867,
      "Ġdis": 868,
      "ff": 869,
      "Ġtre": 870,
      "Ġbed": 871,
      "ĠSue": 872,
      "ious": 873,
      "Ġrabbit": 874,
      "Ġsmile": 875,
      "ĠN": 876,
      "Thank": 877,
      "Ġfo": 878,
      "Ġpain": 879,
      "Ġnext": 880,
      "Ġenjoy": 881,
      "Ġwait": 882,
      "Ġdel": 883,
      "imb": 884,
      "maz": 885,
      "Ġamaz": 886,
      "ember": 887,
      "Ġtruck": 888,
      "Ġcolor": 889,
      "Ġclimb": 890,
      "olly": 891,
      "Ġye": 892,
      "Ġwonder": 893,
      "Ġma": 894,
      "Ġpicture": 895,
      "ange": 896,
      "ught": 897,
      "Ġvoice": 898,
      "Ġeyes": 899,
      "Ġwalk": 900,
      "able": 901,
      "Ġquickly": 902,
      "Ġapp": 903,
      "ac": 904,
      "Ġhands": 905,
      "ĠSp": 906,
      "Ġbeing": 907,
      "Ġafter": 908,
      "Ġright": 909,
      "Ġmor": 910,
      "Ġever": 911,
      "Ġdif": 912,
      "irst": 913,
      "Ġremember": 914,
      "Ġde": 915,
      "Ġsu": 916,
      "Ġjo": 917,
      "Ġwatch": 918,
      "isy": 919,
      "Ġshout": 920,
      "Ġwork": 921,
      "oon": 922,
      "Ġgive": 923,
      "Ġfish": 924,
      "Ġthree": 925,
      "Ġnear": 926,
      "Ġbro": 927,
      "Ġforest": 928,
      "so": 929,
      "Ġgre": 930,
      "Ġstrong": 931,
      "Ġfood": 932,
      "Ġblue": 933,
      "Ġeveryone": 934,
      "Ġbeen": 935,
      "bbed": 936,
      "Ġcloser": 937,
      "Ġtal": 938,
      "Ġtra": 939,
      "Ġcuri": 940,
      "bye": 941,
      "Ġbecame": 942,
      "Ġalso": 943,
      "Ġflowers": 944,
      "ream": 945,
      "Ġimport": 946,
      "Ġmum": 947,
      "Ġyell": 948,
      "Ġlisten": 949,
      "aybe": 950,
      "Ġplace": 951,
      "Ġac": 952,
      "ered": 953,
      "Ġrain": 954,
      "Ġwatched": 955,
      "ey": 956,
      "Ġcurious": 957,
      "Ġshowed": 958,
      "ollow": 959,
      "day": 960,
      "Ġus": 961,
      "Ġbel": 962,
      "ized": 963,
      "Ġuse": 964,
      "Ġimportant": 965,
      "Ġsound": 966,
      "Ġsure": 967,
      "Ġsqu": 968,
      "Ġhead": 969,
      "Ġthink": 970,
      "Ġbright": 971,
      "ng": 972,
      "ĠSarah": 973,
      "Ġmag": 974,
      "Ġwhere": 975,
      "Ġface": 976,
      "Ġokay": 977,
      "aught": 978,
      "Ġgoodbye": 979,
      "kes": 980,
      "Ġchild": 981,
      "ĠSpot": 982,
      "fere": 983,
      "ired": 984,
      "Ġbus": 985,
      "Ġfollow": 986,
      "Ġhigh": 987,
      "Ġcont": 988,
      "Ġdiffere": 989,
      "aisy": 990,
      "Ġhere": 991,
      "Ġper": 992,
      "lease": 993,
      "Ġstick": 994,
      "Ġslide": 995,
      "Look": 996,
      "Ġfirst": 997,
      "ila": 998,
      "Ġhas": 999,
      "Ġboat": 1000,
      "Can": 1001,
      "lly": 1002,
      "Mom": 1003,
      "Ġbit": 1004,
      "Ġwarm": 1005,
      "itc": 1006,
      "Ġstore": 1007,
      "Ġcr": 1008,
      "ull": 1009,
      "leep": 1010,
      "Ġworld": 1011,
      "Ġhop": 1012,
      "Ġdress": 1013,
      "ĠTh": 1014,
      "Ġgame": 1015,
      "Ġnight": 1016,
      "Ġbegan": 1017,
      "Ġdifferent": 1018,
      "more": 1019,
      "Ġanymore": 1020,
      "We": 1021,
      "Ġbutter": 1022,
      "Ġmean": 1023
    },
    "merges": [
      [
        "h",
        "e"
      ],
      [
        "Ġ",
        "t"
      ],
      [
        "Ġ",
        "a"
      ],
      [
        "Ġ",
        "s"
      ],
      [
        "Ġ",
        "w"
      ],
      [
        "n",
        "d"
      ],
      [
        "Ġt",
        "he"
      ],
      [
        "e",
        "d"
      ],
      [
        "Ġa",
        "nd"
      ],
      [
        "i",
        "n"
      ],
      [
        "Ġt",
        "o"
      ],
      [
        "Ġ",
        "b"
      ],
      [
        "Ġ",
        "h"
      ],
      [
        "Ġw",
        "a"
      ],
      [
        "r",
        "e"
      ],
      [
        "o",
        "u"
      ],
      [
        "Ġ",
        "f"
      ],
      [
        "i",
        "t"
      ],
      [
        "Ġ",
        "T"
      ],
      [
        "Ġ",
        "l"
      ],
      [
        "Ġ",
        "c"
      ],
      [
        "Ġ",
        "he"
      ],
      [
        "e",
        "r"
      ],
      [
        "Ġ",
        "d"
      ],
      [
        "Ġwa",
        "s"
      ],
      [
        "Ġ",
        "m"
      ],
      [
        "Ġ",
        "p"
      ],
      [
        "o",
        "m"
      ],
      [
        "Ġ",
        "o"
      ],
      [
        "in",
        "g"
      ],
      [
        "a",
        "y"
      ],
      [
        "a",
        "r"
      ],
      [
        "i",
        "s"
      ],
      [
        "ĠT",
        "he"
      ],
      [
        "Ġ",
        "g"
      ],
      [
        "i",
        "d"
      ],
      [
        "i",
        "l"
      ],
      [
        "a",
        "t"
      ],
      [
        "Ġ",
        "S"
      ],
      [
        "Ġs",
        "a"
      ],
      [
        "e",
        "n"
      ],
      [
        "Ġ",
        "n"
      ],
      [
        "Ġh",
        "a"
      ],
      [
        "a",
        "n"
      ],
      [
        "i",
        "m"
      ],
      [
        "o",
        "r"
      ],
      [
        "o",
        "n"
      ],
      [
        "Ġt",
        "h"
      ],
      [
        "Ġ",
        "it"
      ],
      [
        "l",
        "l"
      ],
      [
        "Ġ",
        "H"
      ],
      [
        "l",
        "e"
      ],
      [
        "Ġ",
        "\""
      ],
      [
        "e",
        "t"
      ],
      [
        "Ġhe",
        "r"
      ],
      [
        "i",
        "r"
      ],
      [
        "ĠS",
        "he"
      ],
      [
        "o",
        "t"
      ],
      [
        "ĠH",
        "e"
      ],
      [
        "Ġ",
        "in"
      ],
      [
        "v",
        "er"
      ],
      [
        "e",
        "s"
      ],
      [
        "o",
        "w"
      ],
      [
        "u",
        "t"
      ],
      [
        "c",
        "k"
      ],
      [
        "Ġ",
        "e"
      ],
      [
        "Ġsa",
        "id"
      ],
      [
        "Ġ",
        "u"
      ],
      [
        "l",
        "d"
      ],
      [
        "ĠThe",
        "y"
      ],
      [
        "Ġ",
        "y"
      ],
      [
        "Ġ",
        "L"
      ],
      [
        "o",
        "o"
      ],
      [
        "i",
        "g"
      ],
      [
        "Ġb",
        "e"
      ],
      [
        "a",
        "m"
      ],
      [
        "Ġ",
        "r"
      ],
      [
        "Ġs",
        "t"
      ],
      [
        "Ġs",
        "he"
      ],
      [
        "c",
        "e"
      ],
      [
        "p",
        "p"
      ],
      [
        "il",
        "y"
      ],
      [
        "O",
        "n"
      ],
      [
        "it",
        "h"
      ],
      [
        "Ġ",
        "I"
      ],
      [
        "k",
        "e"
      ],
      [
        "Ġw",
        "ith"
      ],
      [
        "v",
        "e"
      ],
      [
        "k",
        "ed"
      ],
      [
        "Ġs",
        "o"
      ],
      [
        "Ġo",
        "f"
      ],
      [
        "r",
        "i"
      ],
      [
        "Ġo",
        "n"
      ],
      [
        "Ġh",
        "is"
      ],
      [
        "Ġy",
        "ou"
      ],
      [
        "Ġp",
        "l"
      ],
      [
        "Ġd",
        "ay"
      ],
      [
        "ver",
        "y"
      ],
      [
        "n",
        "t"
      ],
      [
        "a",
        "d"
      ],
      [
        "ĠL",
        "ily"
      ],
      [
        "Ġth",
        "at"
      ],
      [
        "Ġ",
        "B"
      ],
      [
        "Ġu",
        "p"
      ],
      [
        "s",
        "t"
      ],
      [
        "Ġha",
        "d"
      ],
      [
        "Ġpl",
        "ay"
      ],
      [
        "e",
        "l"
      ],
      [
        "Ġthe",
        "y"
      ],
      [
        "Ġm",
        "om"
      ],
      [
        "m",
        "y"
      ],
      [
        "'",
        "s"
      ],
      [
        "Ġw",
        "e"
      ],
      [
        "Ġf",
        "or"
      ],
      [
        "ou",
        "ld"
      ],
      [
        "u",
        "n"
      ],
      [
        "en",
        "t"
      ],
      [
        "it",
        "t"
      ],
      [
        "Ġ",
        "M"
      ],
      [
        "he",
        "r"
      ],
      [
        "ou",
        "t"
      ],
      [
        "Ġha",
        "pp"
      ],
      [
        "Ġl",
        "i"
      ],
      [
        "c",
        "h"
      ],
      [
        "Ġs",
        "h"
      ],
      [
        "l",
        "y"
      ],
      [
        "Ġwa",
        "nt"
      ],
      [
        "itt",
        "le"
      ],
      [
        "ou",
        "nd"
      ],
      [
        "im",
        "e"
      ],
      [
        "Ġl",
        "ittle"
      ],
      [
        "a",
        "ll"
      ],
      [
        "Ġ",
        "Ġ"
      ],
      [
        "Ġt",
        "ime"
      ],
      [
        "e",
        "nd"
      ],
      [
        "Ġ",
        "very"
      ],
      [
        "Ġthe",
        "re"
      ],
      [
        "Ġd",
        "o"
      ],
      [
        "Ġw",
        "h"
      ],
      [
        "s",
        "e"
      ],
      [
        "om",
        "e"
      ],
      [
        "Ġs",
        "m"
      ],
      [
        "h",
        "t"
      ],
      [
        "Ġ",
        "re"
      ],
      [
        "a",
        "l"
      ],
      [
        "Ġ",
        "k"
      ],
      [
        "Ġn",
        "e"
      ],
      [
        "Ġb",
        "ig"
      ],
      [
        "Ġa",
        "s"
      ],
      [
        "a",
        "ck"
      ],
      [
        "Ġ",
        "A"
      ],
      [
        "Ġhapp",
        "y"
      ],
      [
        "ri",
        "end"
      ],
      [
        "Ġf",
        "riend"
      ],
      [
        "Ġn",
        "ot"
      ],
      [
        "Ġb",
        "ut"
      ],
      [
        "Ġsa",
        "w"
      ],
      [
        "Ġa",
        "n"
      ],
      [
        "On",
        "e"
      ],
      [
        "r",
        "a"
      ],
      [
        "Ġ",
        "J"
      ],
      [
        "ĠT",
        "im"
      ],
      [
        ".",
        "\""
      ],
      [
        "ĠI",
        "t"
      ],
      [
        "r",
        "y"
      ],
      [
        "'",
        "t"
      ],
      [
        "id",
        "e"
      ],
      [
        "v",
        "ed"
      ],
      [
        "On",
        "ce"
      ],
      [
        "!",
        "\""
      ],
      [
        "Ġ",
        "is"
      ],
      [
        "Ġl",
        "oo"
      ],
      [
        "u",
        "g"
      ],
      [
        "a",
        "ke"
      ],
      [
        "Ġ",
        "One"
      ],
      [
        "t",
        "er"
      ],
      [
        "e",
        "c"
      ],
      [
        "Ġwe",
        "re"
      ],
      [
        "o",
        "re"
      ],
      [
        "Ġl",
        "o"
      ],
      [
        "Ġb",
        "o"
      ],
      [
        "ir",
        "l"
      ],
      [
        "Ġup",
        "on"
      ],
      [
        "Ġh",
        "im"
      ],
      [
        "Ġg",
        "irl"
      ],
      [
        "Ġto",
        "o"
      ],
      [
        "ar",
        "d"
      ],
      [
        "Ġwant",
        "ed"
      ],
      [
        "Ġg",
        "o"
      ],
      [
        "Ġ",
        "j"
      ],
      [
        "Ġ",
        "out"
      ],
      [
        "Ġs",
        "e"
      ],
      [
        "Ġsm",
        "il"
      ],
      [
        "f",
        "u"
      ],
      [
        "il",
        "l"
      ],
      [
        "he",
        "n"
      ],
      [
        "Ġs",
        "p"
      ],
      [
        "w",
        "ay"
      ],
      [
        "Ġc",
        "ould"
      ],
      [
        "i",
        "nd"
      ],
      [
        "u",
        "r"
      ],
      [
        "Ġa",
        "t"
      ],
      [
        "Ġe",
        "x"
      ],
      [
        "a",
        "in"
      ],
      [
        "Ġthe",
        "m"
      ],
      [
        "r",
        "ound"
      ],
      [
        "Ġw",
        "ent"
      ],
      [
        "he",
        "d"
      ],
      [
        "ar",
        "t"
      ],
      [
        "i",
        "c"
      ],
      [
        "Ġd",
        "id"
      ],
      [
        "Ġn",
        "am"
      ],
      [
        "Ġthe",
        "ir"
      ],
      [
        "r",
        "om"
      ],
      [
        "h",
        "ing"
      ],
      [
        "l",
        "p"
      ],
      [
        "Ġa",
        "re"
      ],
      [
        "fu",
        "l"
      ],
      [
        "Ġc",
        "an"
      ],
      [
        "Ġhe",
        "lp"
      ],
      [
        "Ġfriend",
        "s"
      ],
      [
        "u",
        "m"
      ],
      [
        "?",
        "\""
      ],
      [
        "Ġa",
        "ll"
      ],
      [
        "Ġha",
        "ve"
      ],
      [
        "Ġ",
        "W"
      ],
      [
        "ig",
        "ht"
      ],
      [
        "ĠT",
        "om"
      ],
      [
        "ĠB",
        "en"
      ],
      [
        "Ġk",
        "n"
      ],
      [
        "on",
        "e"
      ],
      [
        "Ã",
        "¢"
      ],
      [
        "â",
        "Ĥ"
      ],
      [
        "âĤ",
        "¬"
      ],
      [
        "Ġsmil",
        "ed"
      ],
      [
        "oo",
        "d"
      ],
      [
        "Ġb",
        "ack"
      ],
      [
        "ar",
        "k"
      ],
      [
        "Ġnam",
        "ed"
      ],
      [
        "ĠTim",
        "my"
      ],
      [
        "a",
        "re"
      ],
      [
        "Ġc",
        "l"
      ],
      [
        "ĠB",
        "ut"
      ],
      [
        "Ġas",
        "ked"
      ],
      [
        "Ġf",
        "un"
      ],
      [
        "ou",
        "g"
      ],
      [
        "Ġn",
        "o"
      ],
      [
        "Ġlo",
        "ved"
      ],
      [
        "Ġl",
        "e"
      ],
      [
        "el",
        "t"
      ],
      [
        "o",
        "p"
      ],
      [
        "Ġa",
        "round"
      ],
      [
        "s",
        "ide"
      ],
      [
        "i",
        "ck"
      ],
      [
        "Ġloo",
        "ked"
      ],
      [
        "Ġs",
        "c"
      ],
      [
        "g",
        "et"
      ],
      [
        "Ġf",
        "elt"
      ],
      [
        "Ġa",
        "l"
      ],
      [
        "am",
        "e"
      ],
      [
        "om",
        "et"
      ],
      [
        "Ġbo",
        "y"
      ],
      [
        "Ġf",
        "e"
      ],
      [
        "Y",
        "ou"
      ],
      [
        "u",
        "re"
      ],
      [
        "Ġb",
        "ir"
      ],
      [
        "Ġm",
        "an"
      ],
      [
        "Ġst",
        "art"
      ],
      [
        "Ġto",
        "y"
      ],
      [
        "Ġr",
        "o"
      ],
      [
        "Ġse",
        "e"
      ],
      [
        "Ġm",
        "e"
      ],
      [
        "d",
        "d"
      ],
      [
        "i",
        "ce"
      ],
      [
        "Ġli",
        "ke"
      ],
      [
        "Ġb",
        "r"
      ],
      [
        "Ġw",
        "ould"
      ],
      [
        "a",
        "s"
      ],
      [
        "Ġs",
        "omet"
      ],
      [
        "get",
        "her"
      ],
      [
        "on",
        "g"
      ],
      [
        "Ġbir",
        "d"
      ],
      [
        "Ġs",
        "ome"
      ],
      [
        "re",
        "e"
      ],
      [
        "Ġw",
        "or"
      ],
      [
        "k",
        "ing"
      ],
      [
        "Ġa",
        "g"
      ],
      [
        "Ġto",
        "gether"
      ],
      [
        "Ġstart",
        "ed"
      ],
      [
        "a",
        "g"
      ],
      [
        "Ġs",
        "ay"
      ],
      [
        "ing",
        "s"
      ],
      [
        "Ġwh",
        "at"
      ],
      [
        "it",
        "ed"
      ],
      [
        "ad",
        "e"
      ],
      [
        "Ġf",
        "a"
      ],
      [
        "ow",
        "n"
      ],
      [
        ",",
        "\""
      ],
      [
        "Ġsomet",
        "hing"
      ],
      [
        "ar",
        "ed"
      ],
      [
        "i",
        "e"
      ],
      [
        "Ġa",
        "way"
      ],
      [
        "Ġex",
        "c"
      ],
      [
        "Ġr",
        "an"
      ],
      [
        "ou",
        "d"
      ],
      [
        "Ġm",
        "ake"
      ],
      [
        "i",
        "f"
      ],
      [
        "Ġp",
        "ark"
      ],
      [
        "b",
        "le"
      ],
      [
        "h",
        "at"
      ],
      [
        "Ġm",
        "ade"
      ],
      [
        "pp",
        "ed"
      ],
      [
        "Ġ",
        "E"
      ],
      [
        "Ġc",
        "ar"
      ],
      [
        "Ġ",
        "F"
      ],
      [
        "Ġf",
        "rom"
      ],
      [
        "Ġc",
        "o"
      ],
      [
        "Ġo",
        "t"
      ],
      [
        "Ġw",
        "hen"
      ],
      [
        "Ġsa",
        "d"
      ],
      [
        "Ġne",
        "w"
      ],
      [
        "Ġl",
        "a"
      ],
      [
        "p",
        "l"
      ],
      [
        "Ġthe",
        "n"
      ],
      [
        "e",
        "ll"
      ],
      [
        "Ġp",
        "r"
      ],
      [
        "Ġag",
        "ain"
      ],
      [
        "u",
        "s"
      ],
      [
        "Ġot",
        "her"
      ],
      [
        "Ġh",
        "ome"
      ],
      [
        "Ġp",
        "ut"
      ],
      [
        "Ġf",
        "ound"
      ],
      [
        "all",
        "y"
      ],
      [
        "Ġwa",
        "l"
      ],
      [
        "ĠM",
        "om"
      ],
      [
        "oug",
        "ht"
      ],
      [
        "Ġf",
        "l"
      ],
      [
        "es",
        "t"
      ],
      [
        "Ġwh",
        "o"
      ],
      [
        "Ġexc",
        "ited"
      ],
      [
        "e",
        "p"
      ],
      [
        "u",
        "st"
      ],
      [
        "Ġ",
        "You"
      ],
      [
        "Ġplay",
        "ing"
      ],
      [
        "Ġh",
        "ug"
      ],
      [
        "q",
        "u"
      ],
      [
        "Ġg",
        "et"
      ],
      [
        "Ġd",
        "ec"
      ],
      [
        "s",
        "s"
      ],
      [
        "ri",
        "ed"
      ],
      [
        "Ġc",
        "h"
      ],
      [
        "ĠS",
        "u"
      ],
      [
        "Ġ",
        "D"
      ],
      [
        "ou",
        "s"
      ],
      [
        "Ġg",
        "ood"
      ],
      [
        "Ġs",
        "w"
      ],
      [
        "a",
        "ch"
      ],
      [
        "u",
        "ch"
      ],
      [
        "oo",
        "k"
      ],
      [
        "r",
        "o"
      ],
      [
        "n",
        "y"
      ],
      [
        "Ġth",
        "ings"
      ],
      [
        "u",
        "ck"
      ],
      [
        "Ġg",
        "ot"
      ],
      [
        "Ġ",
        "v"
      ],
      [
        "a",
        "ve"
      ],
      [
        "Ġc",
        "ame"
      ],
      [
        "Ġe",
        "very"
      ],
      [
        "id",
        "ed"
      ],
      [
        "Ġdec",
        "ided"
      ],
      [
        "Ġon",
        "e"
      ],
      [
        "Ġb",
        "l"
      ],
      [
        "Ġbe",
        "c"
      ],
      [
        "Ġdo",
        "g"
      ],
      [
        "Ġsc",
        "ared"
      ],
      [
        "Ġd",
        "own"
      ],
      [
        "Ġli",
        "ked"
      ],
      [
        "Ġth",
        "an"
      ],
      [
        "ou",
        "se"
      ],
      [
        "ĠS",
        "o"
      ],
      [
        "Ġc",
        "are"
      ],
      [
        "Ġt",
        "ree"
      ],
      [
        "Ġfe",
        "el"
      ],
      [
        "b",
        "b"
      ],
      [
        "Ġsay",
        "s"
      ],
      [
        "Ġf",
        "ind"
      ],
      [
        "way",
        "s"
      ],
      [
        "Ġyou",
        "r"
      ],
      [
        "a",
        "x"
      ],
      [
        "Ġd",
        "ad"
      ],
      [
        "Ġa",
        "b"
      ],
      [
        "Ġp",
        "o"
      ],
      [
        "ar",
        "a"
      ],
      [
        "is",
        "t"
      ],
      [
        "Ġal",
        "ways"
      ],
      [
        "ĠS",
        "am"
      ],
      [
        "an",
        "t"
      ],
      [
        "Ġt",
        "a"
      ],
      [
        "Ġ",
        "ke"
      ],
      [
        "ĠW",
        "hen"
      ],
      [
        "ĠJ",
        "o"
      ],
      [
        "ou",
        "r"
      ],
      [
        "Ġth",
        "ought"
      ],
      [
        "Ġl",
        "ot"
      ],
      [
        "nd",
        "er"
      ],
      [
        "Ġdid",
        "n"
      ],
      [
        "Ġkn",
        "e"
      ],
      [
        "Ġab",
        "out"
      ],
      [
        "Ġg",
        "ra"
      ],
      [
        "it",
        "e"
      ],
      [
        "Ġo",
        "ld"
      ],
      [
        "Ġtoo",
        "k"
      ],
      [
        "Ġin",
        "t"
      ],
      [
        "Ġm",
        "y"
      ],
      [
        "dd",
        "en"
      ],
      [
        "Ġloo",
        "k"
      ],
      [
        "ec",
        "i"
      ],
      [
        "Ġla",
        "ug"
      ],
      [
        "f",
        "e"
      ],
      [
        "n",
        "ed"
      ],
      [
        "Ġh",
        "o"
      ],
      [
        "ĠM",
        "ax"
      ],
      [
        "Ġout",
        "side"
      ],
      [
        "c",
        "hed"
      ],
      [
        "Ġmom",
        "my"
      ],
      [
        "is",
        "e"
      ],
      [
        "es",
        "s"
      ],
      [
        "er",
        "s"
      ],
      [
        "ĠH",
        "er"
      ],
      [
        "dden",
        "ly"
      ],
      [
        "en",
        "ed"
      ],
      [
        "n",
        "a"
      ],
      [
        "g",
        "ed"
      ],
      [
        "Ġt",
        "ake"
      ],
      [
        "eci",
        "al"
      ],
      [
        "Ġsp",
        "ecial"
      ],
      [
        "ĠJ",
        "ack"
      ],
      [
        "Ġtoy",
        "s"
      ],
      [
        "Ġkne",
        "w"
      ],
      [
        "a",
        "p"
      ],
      [
        "Ġp",
        "e"
      ],
      [
        "Ġle",
        "ar"
      ],
      [
        "Ġb",
        "all"
      ],
      [
        "Ġkn",
        "ow"
      ],
      [
        "re",
        "at"
      ],
      [
        "ĠS",
        "ara"
      ],
      [
        "re",
        "t"
      ],
      [
        "Ġm",
        "ore"
      ],
      [
        "f",
        "ter"
      ],
      [
        "Ġan",
        "y"
      ],
      [
        "o",
        "b"
      ],
      [
        "Ġw",
        "ill"
      ],
      [
        "i",
        "ve"
      ],
      [
        "Ġs",
        "un"
      ],
      [
        "Ġt",
        "r"
      ],
      [
        "m",
        "a"
      ],
      [
        "Ġc",
        "at"
      ],
      [
        "Ġt",
        "w"
      ],
      [
        "Ġh",
        "ow"
      ],
      [
        "v",
        "en"
      ],
      [
        "ĠA",
        "n"
      ],
      [
        "Ġ",
        "Ã¢"
      ],
      [
        "Ġsh",
        "ow"
      ],
      [
        "Ġint",
        "o"
      ],
      [
        "ĠE",
        "very"
      ],
      [
        "Ġm",
        "uch"
      ],
      [
        "ĠSu",
        "ddenly"
      ],
      [
        "Ġcould",
        "n"
      ],
      [
        "Ġs",
        "k"
      ],
      [
        "Ġ",
        "en"
      ],
      [
        "Ġex",
        "pl"
      ],
      [
        "Ġm",
        "o"
      ],
      [
        "a",
        "u"
      ],
      [
        "is",
        "h"
      ],
      [
        "Ġto",
        "ld"
      ],
      [
        "i",
        "a"
      ],
      [
        "Ġcl",
        "o"
      ],
      [
        "a",
        "nd"
      ],
      [
        "Ġ",
        "qu"
      ],
      [
        "g",
        "e"
      ],
      [
        "an",
        "k"
      ],
      [
        "Å",
        "ĵ"
      ],
      [
        "Ġth",
        "is"
      ],
      [
        "Ġ",
        "if"
      ],
      [
        "Ġin",
        "side"
      ],
      [
        "Ġha",
        "nd"
      ],
      [
        "Ġpr",
        "oud"
      ],
      [
        "Ġro",
        "om"
      ],
      [
        "Ġne",
        "ver"
      ],
      [
        "Ġo",
        "ver"
      ],
      [
        "Ġhe",
        "ard"
      ],
      [
        "Ġh",
        "ouse"
      ],
      [
        "Ġo",
        "p"
      ],
      [
        "ĠH",
        "is"
      ],
      [
        "Ġs",
        "l"
      ],
      [
        "Ġs",
        "or"
      ],
      [
        "u",
        "c"
      ],
      [
        "ot",
        "her"
      ],
      [
        "he",
        "re"
      ],
      [
        "Ġg",
        "ave"
      ],
      [
        "i",
        "on"
      ],
      [
        "Ġp",
        "ick"
      ],
      [
        "t",
        "y"
      ],
      [
        "Ġo",
        "r"
      ],
      [
        "Ġst",
        "r"
      ],
      [
        "Ġplay",
        "ed"
      ],
      [
        "Ġt",
        "ried"
      ],
      [
        "d",
        "y"
      ],
      [
        "ĠF",
        "rom"
      ],
      [
        "ĠAn",
        "na"
      ],
      [
        "a",
        "ce"
      ],
      [
        "Ġr",
        "un"
      ],
      [
        "in",
        "k"
      ],
      [
        "Ġwa",
        "ter"
      ],
      [
        "o",
        "ll"
      ],
      [
        "au",
        "se"
      ],
      [
        "Ġsm",
        "all"
      ],
      [
        "Ġj",
        "ust"
      ],
      [
        "at",
        "e"
      ],
      [
        "um",
        "p"
      ],
      [
        "Ġwa",
        "t"
      ],
      [
        "Ġb",
        "u"
      ],
      [
        "b",
        "y"
      ],
      [
        "ot",
        "h"
      ],
      [
        "Ġe",
        "at"
      ],
      [
        "oug",
        "h"
      ],
      [
        "Ġhug",
        "ged"
      ],
      [
        "Ġc",
        "om"
      ],
      [
        "Ġsor",
        "ry"
      ],
      [
        "v",
        "ing"
      ],
      [
        "et",
        "ter"
      ],
      [
        "'",
        "m"
      ],
      [
        "Ġc",
        "all"
      ],
      [
        "Ġbec",
        "ause"
      ],
      [
        "il",
        "e"
      ],
      [
        "ĠThe",
        "n"
      ],
      [
        "Ġne",
        "ed"
      ],
      [
        "s",
        "ed"
      ],
      [
        "i",
        "z"
      ],
      [
        "s",
        "el"
      ],
      [
        "h",
        "n"
      ],
      [
        "Ġl",
        "ong"
      ],
      [
        "il",
        "d"
      ],
      [
        "Ġof",
        "f"
      ],
      [
        "Ġbe",
        "a"
      ],
      [
        "Ġp",
        "ret"
      ],
      [
        "or",
        "t"
      ],
      [
        "u",
        "e"
      ],
      [
        "Ġt",
        "ry"
      ],
      [
        "Ġbo",
        "x"
      ],
      [
        "n",
        "ing"
      ],
      [
        "ar",
        "s"
      ],
      [
        "Ġn",
        "ice"
      ],
      [
        "Ġp",
        "u"
      ],
      [
        "Ġe",
        "ach"
      ],
      [
        "Ġfl",
        "ow"
      ],
      [
        "Ġu",
        "nt"
      ],
      [
        "Ġ",
        "C"
      ],
      [
        "ĠA",
        "nd"
      ],
      [
        "in",
        "e"
      ],
      [
        "Y",
        "es"
      ],
      [
        "v",
        "ent"
      ],
      [
        "Ġlaug",
        "hed"
      ],
      [
        "Ġa",
        "d"
      ],
      [
        "Ġthan",
        "ked"
      ],
      [
        "Ġunt",
        "il"
      ],
      [
        "Ġman",
        "y"
      ],
      [
        "a",
        "k"
      ],
      [
        "ad",
        "y"
      ],
      [
        "Ġbea",
        "ut"
      ],
      [
        "f",
        "t"
      ],
      [
        "im",
        "al"
      ],
      [
        "Ġan",
        "imal"
      ],
      [
        "Ġd",
        "on"
      ],
      [
        "e",
        "m"
      ],
      [
        "Ġb",
        "est"
      ],
      [
        "Ġbe",
        "ar"
      ],
      [
        "Ġ",
        "im"
      ],
      [
        "Ġe",
        "nd"
      ],
      [
        "o",
        "y"
      ],
      [
        "ĠM",
        "ia"
      ],
      [
        "Ġe",
        "ven"
      ],
      [
        "Ġk",
        "ind"
      ],
      [
        "p",
        "t"
      ],
      [
        "Ġb",
        "etter"
      ],
      [
        "ur",
        "t"
      ],
      [
        "Ġg",
        "r"
      ],
      [
        "Ġb",
        "y"
      ],
      [
        "g",
        "ry"
      ],
      [
        "Ġr",
        "a"
      ],
      [
        "Ġlear",
        "ned"
      ],
      [
        "ur",
        "p"
      ],
      [
        "ĠW",
        "e"
      ],
      [
        "Ġg",
        "ard"
      ],
      [
        "Ġgard",
        "en"
      ],
      [
        "ĠJo",
        "hn"
      ],
      [
        "sel",
        "f"
      ],
      [
        "Ġf",
        "i"
      ],
      [
        "Ġd",
        "re"
      ],
      [
        "Ġbeaut",
        "i"
      ],
      [
        "âĤ¬",
        "â"
      ],
      [
        "Ġlot",
        "s"
      ],
      [
        "Ġbeauti",
        "ful"
      ],
      [
        "uc",
        "y"
      ],
      [
        "ĠA",
        "s"
      ],
      [
        "b",
        "er"
      ],
      [
        "Ġli",
        "ved"
      ],
      [
        "T",
        "h"
      ],
      [
        "ĠL",
        "ucy"
      ],
      [
        "in",
        "y"
      ],
      [
        "le",
        "w"
      ],
      [
        "Ġsk",
        "y"
      ],
      [
        "Ġb",
        "ra"
      ],
      [
        "Ġc",
        "le"
      ],
      [
        "ĠB",
        "ob"
      ],
      [
        "Ġs",
        "n"
      ],
      [
        "Ġfa",
        "st"
      ],
      [
        "Ġc",
        "he"
      ],
      [
        "Ġwa",
        "y"
      ],
      [
        "Ġcare",
        "ful"
      ],
      [
        "Ġtw",
        "o"
      ],
      [
        "I",
        "t"
      ],
      [
        "Ġcall",
        "ed"
      ],
      [
        "an",
        "e"
      ],
      [
        "c",
        "t"
      ],
      [
        "Ġc",
        "u"
      ],
      [
        "Ħ",
        "¢"
      ],
      [
        "âĤ¬â",
        "Ħ¢"
      ],
      [
        "Ġc",
        "ome"
      ],
      [
        "Ġb",
        "oth"
      ],
      [
        "Ġj",
        "ump"
      ],
      [
        "Ġw",
        "o"
      ],
      [
        "a",
        "se"
      ],
      [
        "Ġst",
        "ill"
      ],
      [
        "ec",
        "t"
      ],
      [
        "Ġg",
        "l"
      ],
      [
        "Ġt",
        "e"
      ],
      [
        "Ġlo",
        "ve"
      ],
      [
        "Ġ",
        "P"
      ],
      [
        "Ġa",
        "r"
      ],
      [
        "Ġh",
        "ard"
      ],
      [
        "v",
        "es"
      ],
      [
        "L",
        "et"
      ],
      [
        "Ġf",
        "am"
      ],
      [
        "Ġl",
        "oud"
      ],
      [
        "Ġre",
        "m"
      ],
      [
        "Ġl",
        "ist"
      ],
      [
        "ĠA",
        "fter"
      ],
      [
        "Ġst",
        "ay"
      ],
      [
        "ig",
        "h"
      ],
      [
        "i",
        "ed"
      ],
      [
        "Ġd",
        "an"
      ],
      [
        "W",
        "hat"
      ],
      [
        "Ġl",
        "et"
      ],
      [
        "Ġf",
        "in"
      ],
      [
        "Ġco",
        "l"
      ],
      [
        "urp",
        "r"
      ],
      [
        "Ġu",
        "nder"
      ],
      [
        "Ġwal",
        "ked"
      ],
      [
        "Ġs",
        "urpr"
      ],
      [
        "Ġbra",
        "ve"
      ],
      [
        "Ġf",
        "lew"
      ],
      [
        "Ġsa",
        "fe"
      ],
      [
        "Ġit",
        "s"
      ],
      [
        "Ġanimal",
        "s"
      ],
      [
        "Ġso",
        "on"
      ],
      [
        "Ġim",
        "p"
      ],
      [
        "oo",
        "l"
      ],
      [
        "Ġf",
        "ly"
      ],
      [
        "Ġo",
        "w"
      ],
      [
        "Ġexpl",
        "ore"
      ],
      [
        "he",
        "s"
      ],
      [
        "Ġh",
        "urt"
      ],
      [
        "a",
        "st"
      ],
      [
        "Ġto",
        "w"
      ],
      [
        "Ġr",
        "ed"
      ],
      [
        "op",
        "le"
      ],
      [
        "Ġc",
        "on"
      ],
      [
        "Ġdo",
        "ll"
      ],
      [
        "f",
        "ore"
      ],
      [
        "Ġgo",
        "ing"
      ],
      [
        "dd",
        "ed"
      ],
      [
        "Ġ",
        "G"
      ],
      [
        "is",
        "ed"
      ],
      [
        "Ġb",
        "ad"
      ],
      [
        "um",
        "my"
      ],
      [
        "Ġke",
        "pt"
      ],
      [
        "i",
        "p"
      ],
      [
        "Ġst",
        "o"
      ],
      [
        "is",
        "hed"
      ],
      [
        "Ġsh",
        "ould"
      ],
      [
        "Ġfam",
        "ily"
      ],
      [
        "l",
        "ed"
      ],
      [
        "Ġn",
        "ow"
      ],
      [
        "Ġg",
        "round"
      ],
      [
        "Ġp",
        "ic"
      ],
      [
        "i",
        "es"
      ],
      [
        "Ġst",
        "or"
      ],
      [
        "k",
        "ay"
      ],
      [
        "Ġpe",
        "ople"
      ],
      [
        "ag",
        "e"
      ],
      [
        "Ġad",
        "vent"
      ],
      [
        "Ġf",
        "ore"
      ],
      [
        "o",
        "ck"
      ],
      [
        "Ġfeel",
        "ing"
      ],
      [
        "Ġ",
        "R"
      ],
      [
        "ic",
        "ed"
      ],
      [
        "Ġbe",
        "fore"
      ],
      [
        "Ġc",
        "ry"
      ],
      [
        "Ġre",
        "pl"
      ],
      [
        "N",
        "o"
      ],
      [
        "Ġwal",
        "king"
      ],
      [
        "Ġke",
        "ep"
      ],
      [
        "Ġb",
        "ook"
      ],
      [
        "x",
        "t"
      ],
      [
        "Ġdo",
        "or"
      ],
      [
        "il",
        "ly"
      ],
      [
        "T",
        "hat"
      ],
      [
        "Ġwh",
        "ile"
      ],
      [
        "e",
        "et"
      ],
      [
        "b",
        "e"
      ],
      [
        "Ġw",
        "ind"
      ],
      [
        "t",
        "hing"
      ],
      [
        "Ġsh",
        "are"
      ],
      [
        "Ġd",
        "ra"
      ],
      [
        "Ġsh",
        "iny"
      ],
      [
        "Ġno",
        "dded"
      ],
      [
        "Ġt",
        "ur"
      ],
      [
        "Ġan",
        "gry"
      ],
      [
        "Ġop",
        "ened"
      ],
      [
        "h",
        "y"
      ],
      [
        "Ġ",
        "ide"
      ],
      [
        "ar",
        "y"
      ],
      [
        "t",
        "ing"
      ],
      [
        "Ġpick",
        "ed"
      ],
      [
        "Ġf",
        "r"
      ],
      [
        "Ġe",
        "y"
      ],
      [
        "Ġrepl",
        "ied"
      ],
      [
        "Ġpret",
        "ty"
      ],
      [
        "Ġcle",
        "an"
      ],
      [
        "Ġwa",
        "r"
      ],
      [
        "ĠMom",
        "my"
      ],
      [
        "Ġnot",
        "iced"
      ],
      [
        "Ġsto",
        "pped"
      ],
      [
        "g",
        "er"
      ],
      [
        "Ġno",
        "ise"
      ],
      [
        "Ġide",
        "a"
      ],
      [
        "Ġv",
        "o"
      ],
      [
        "j",
        "oy"
      ],
      [
        "Ġf",
        "ar"
      ],
      [
        "Ġth",
        "r"
      ],
      [
        "ĠD",
        "ad"
      ],
      [
        "bb",
        "it"
      ],
      [
        "Ġadvent",
        "ure"
      ],
      [
        "n",
        "er"
      ],
      [
        "ĠJ",
        "ane"
      ],
      [
        "Ġro",
        "ck"
      ],
      [
        "t",
        "ed"
      ],
      [
        "Ġre",
        "al"
      ],
      [
        "t",
        "ure"
      ],
      [
        "Ġg",
        "reat"
      ],
      [
        "Ġqu",
        "ick"
      ],
      [
        "le",
        "s"
      ],
      [
        "g",
        "an"
      ],
      [
        "Ġw",
        "r"
      ],
      [
        "Ġloo",
        "king"
      ],
      [
        "Ġu",
        "n"
      ],
      [
        "Ġclo",
        "s"
      ],
      [
        "Ġd",
        "is"
      ],
      [
        "f",
        "f"
      ],
      [
        "Ġt",
        "re"
      ],
      [
        "Ġb",
        "ed"
      ],
      [
        "ĠSu",
        "e"
      ],
      [
        "i",
        "ous"
      ],
      [
        "Ġra",
        "bbit"
      ],
      [
        "Ġsmil",
        "e"
      ],
      [
        "Ġ",
        "N"
      ],
      [
        "Th",
        "ank"
      ],
      [
        "Ġf",
        "o"
      ],
      [
        "Ġp",
        "ain"
      ],
      [
        "Ġne",
        "xt"
      ],
      [
        "Ġen",
        "joy"
      ],
      [
        "Ġwa",
        "it"
      ],
      [
        "Ġd",
        "el"
      ],
      [
        "im",
        "b"
      ],
      [
        "ma",
        "z"
      ],
      [
        "Ġa",
        "maz"
      ],
      [
        "em",
        "ber"
      ],
      [
        "Ġtr",
        "uck"
      ],
      [
        "Ġcol",
        "or"
      ],
      [
        "Ġcl",
        "imb"
      ],
      [
        "oll",
        "y"
      ],
      [
        "Ġy",
        "e"
      ],
      [
        "Ġwo",
        "nder"
      ],
      [
        "Ġm",
        "a"
      ],
      [
        "Ġpic",
        "ture"
      ],
      [
        "an",
        "ge"
      ],
      [
        "ug",
        "ht"
      ],
      [
        "Ġvo",
        "ice"
      ],
      [
        "Ġey",
        "es"
      ],
      [
        "Ġwal",
        "k"
      ],
      [
        "a",
        "ble"
      ],
      [
        "Ġquick",
        "ly"
      ],
      [
        "Ġa",
        "pp"
      ],
      [
        "a",
        "c"
      ],
      [
        "Ġhand",
        "s"
      ],
      [
        "ĠS",
        "p"
      ],
      [
        "Ġbe",
        "ing"
      ],
      [
        "Ġa",
        "fter"
      ],
      [
        "Ġr",
        "ight"
      ],
      [
        "Ġm",
        "or"
      ],
      [
        "Ġe",
        "ver"
      ],
      [
        "Ġd",
        "if"
      ],
      [
        "ir",
        "st"
      ],
      [
        "Ġrem",
        "ember"
      ],
      [
        "Ġd",
        "e"
      ],
      [
        "Ġs",
        "u"
      ],
      [
        "Ġj",
        "o"
      ],
      [
        "Ġwat",
        "ch"
      ],
      [
        "is",
        "y"
      ],
      [
        "Ġsh",
        "out"
      ],
      [
        "Ġwor",
        "k"
      ],
      [
        "o",
        "on"
      ],
      [
        "Ġg",
        "ive"
      ],
      [
        "Ġf",
        "ish"
      ],
      [
        "Ġth",
        "ree"
      ],
      [
        "Ġne",
        "ar"
      ],
      [
        "Ġbr",
        "o"
      ],
      [
        "Ġfore",
        "st"
      ],
      [
        "s",
        "o"
      ],
      [
        "Ġg",
        "re"
      ],
      [
        "Ġstr",
        "ong"
      ],
      [
        "Ġf",
        "ood"
      ],
      [
        "Ġbl",
        "ue"
      ],
      [
        "Ġevery",
        "one"
      ],
      [
        "Ġbe",
        "en"
      ],
      [
        "bb",
        "ed"
      ],
      [
        "Ġclos",
        "er"
      ],
      [
        "Ġt",
        "al"
      ],
      [
        "Ġt",
        "ra"
      ],
      [
        "Ġcu",
        "ri"
      ],
      [
        "by",
        "e"
      ],
      [
        "Ġbec",
        "ame"
      ],
      [
        "Ġal",
        "so"
      ],
      [
        "Ġflow",
        "ers"
      ],
      [
        "re",
        "am"
      ],
      [
        "Ġimp",
        "ort"
      ],
      [
        "Ġm",
        "um"
      ],
      [
        "Ġy",
        "ell"
      ],
      [
        "Ġlist",
        "en"
      ],
      [
        "ay",
        "be"
      ],
      [
        "Ġpl",
        "ace"
      ],
      [
        "Ġa",
        "c"
      ],
      [
        "er",
        "ed"
      ],
      [
        "Ġr",
        "ain"
      ],
      [
        "Ġwat",
        "ched"
      ],
      [
        "e",
        "y"
      ],
      [
        "Ġcuri",
        "ous"
      ],
      [
        "Ġshow",
        "ed"
      ],
      [
        "oll",
        "ow"
      ],
      [
        "d",
        "ay"
      ],
      [
        "Ġu",
        "s"
      ],
      [
        "Ġbe",
        "l"
      ],
      [
        "iz",
        "ed"
      ],
      [
        "Ġu",
        "se"
      ],
      [
        "Ġimport",
        "ant"
      ],
      [
        "Ġs",
        "ound"
      ],
      [
        "Ġs",
        "ure"
      ],
      [
        "Ġs",
        "qu"
      ],
      [
        "Ġhe",
        "ad"
      ],
      [
        "Ġth",
        "ink"
      ],
      [
        "Ġbr",
        "ight"
      ],
      [
        "n",
        "g"
      ],
      [
        "ĠSara",
        "h"
      ],
      [
        "Ġm",
        "ag"
      ],
      [
        "Ġw",
        "here"
      ],
      [
        "Ġfa",
        "ce"
      ],
      [
        "Ġo",
        "kay"
      ],
      [
        "a",
        "ught"
      ],
      [
        "Ġgood",
        "bye"
      ],
      [
        "k",
        "es"
      ],
      [
        "Ġch",
        "ild"
      ],
      [
        "ĠSp",
        "ot"
      ],
      [
        "fe",
        "re"
      ],
      [
        "ir",
        "ed"
      ],
      [
        "Ġb",
        "us"
      ],
      [
        "Ġf",
        "ollow"
      ],
      [
        "Ġh",
        "igh"
      ],
      [
        "Ġcon",
        "t"
      ],
      [
        "Ġdif",
        "fere"
      ],
      [
        "a",
        "isy"
      ],
      [
        "Ġhe",
        "re"
      ],
      [
        "Ġp",
        "er"
      ],
      [
        "le",
        "ase"
      ],
      [
        "Ġst",
        "ick"
      ],
      [
        "Ġsl",
        "ide"
      ],
      [
        "L",
        "ook"
      ],
      [
        "Ġf",
        "irst"
      ],
      [
        "il",
        "a"
      ],
      [
        "Ġha",
        "s"
      ],
      [
        "Ġbo",
        "at"
      ],
      [
        "C",
        "an"
      ],
      [
        "ll",
        "y"
      ],
      [
        "M",
        "om"
      ],
      [
        "Ġb",
        "it"
      ],
      [
        "Ġwar",
        "m"
      ],
      [
        "it",
        "c"
      ],
      [
        "Ġst",
        "ore"
      ],
      [
        "Ġc",
        "r"
      ],
      [
        "u",
        "ll"
      ],
      [
        "le",
        "ep"
      ],
      [
        "Ġwor",
        "ld"
      ],
      [
        "Ġh",
        "op"
      ],
      [
        "Ġdre",
        "ss"
      ],
      [
        "ĠT",
        "h"
      ],
      [
        "Ġg",
        "ame"
      ],
      [
        "Ġn",
        "ight"
      ],
      [
        "Ġbe",
        "gan"
      ],
      [
        "Ġdiffere",
        "nt"
      ],
      [
        "m",
        "ore"
      ],
      [
        "Ġany",
        "more"
      ],
      [
        "W",
        "e"
      ],
      [
        "Ġbut",
        "ter"
      ],
      [
        "Ġme",
        "an"
      ]
    ]
  }
}